#ifndef NETWORK_MODEL_H
#define NETWORK_MODEL_H

const unsigned int network_model_dim1 = 7176;

const unsigned char network_model[7176] = {
    0x1c, 0x00, 0x00, 0x00, 0x54, 0x46, 0x4c, 0x33, 0x14, 0x00, 0x20, 0x00, 
    0x1c, 0x00, 0x18, 0x00, 0x14, 0x00, 0x10, 0x00, 0x0c, 0x00, 0x00, 0x00, 
    0x08, 0x00, 0x04, 0x00, 0x14, 0x00, 0x00, 0x00, 0x1c, 0x00, 0x00, 0x00, 
    0x98, 0x00, 0x00, 0x00, 0xf0, 0x00, 0x00, 0x00, 0x98, 0x15, 0x00, 0x00, 
    0xa8, 0x15, 0x00, 0x00, 0xa4, 0x1b, 0x00, 0x00, 0x03, 0x00, 0x00, 0x00, 
    0x01, 0x00, 0x00, 0x00, 0x10, 0x00, 0x00, 0x00, 0x00, 0x00, 0x0a, 0x00, 
    0x10, 0x00, 0x0c, 0x00, 0x08, 0x00, 0x04, 0x00, 0x0a, 0x00, 0x00, 0x00, 
    0x0c, 0x00, 0x00, 0x00, 0x1c, 0x00, 0x00, 0x00, 0x3c, 0x00, 0x00, 0x00, 
    0x0f, 0x00, 0x00, 0x00, 0x73, 0x65, 0x72, 0x76, 0x69, 0x6e, 0x67, 0x5f, 
    0x64, 0x65, 0x66, 0x61, 0x75, 0x6c, 0x74, 0x00, 0x01, 0x00, 0x00, 0x00, 
    0x04, 0x00, 0x00, 0x00, 0x90, 0xff, 0xff, 0xff, 0x0a, 0x00, 0x00, 0x00, 
    0x04, 0x00, 0x00, 0x00, 0x08, 0x00, 0x00, 0x00, 0x64, 0x65, 0x6e, 0x73, 
    0x65, 0x5f, 0x31, 0x34, 0x00, 0x00, 0x00, 0x00, 0x01, 0x00, 0x00, 0x00, 
    0x04, 0x00, 0x00, 0x00, 0x4e, 0xea, 0xff, 0xff, 0x04, 0x00, 0x00, 0x00, 
    0x0e, 0x00, 0x00, 0x00, 0x64, 0x65, 0x6e, 0x73, 0x65, 0x5f, 0x31, 0x32, 
    0x5f, 0x69, 0x6e, 0x70, 0x75, 0x74, 0x00, 0x00, 0x02, 0x00, 0x00, 0x00, 
    0x34, 0x00, 0x00, 0x00, 0x04, 0x00, 0x00, 0x00, 0xdc, 0xff, 0xff, 0xff, 
    0x0d, 0x00, 0x00, 0x00, 0x04, 0x00, 0x00, 0x00, 0x13, 0x00, 0x00, 0x00, 
    0x43, 0x4f, 0x4e, 0x56, 0x45, 0x52, 0x53, 0x49, 0x4f, 0x4e, 0x5f, 0x4d, 
    0x45, 0x54, 0x41, 0x44, 0x41, 0x54, 0x41, 0x00, 0x08, 0x00, 0x0c, 0x00, 
    0x08, 0x00, 0x04, 0x00, 0x08, 0x00, 0x00, 0x00, 0x0c, 0x00, 0x00, 0x00, 
    0x04, 0x00, 0x00, 0x00, 0x13, 0x00, 0x00, 0x00, 0x6d, 0x69, 0x6e, 0x5f, 
    0x72, 0x75, 0x6e, 0x74, 0x69, 0x6d, 0x65, 0x5f, 0x76, 0x65, 0x72, 0x73, 
    0x69, 0x6f, 0x6e, 0x00, 0x0e, 0x00, 0x00, 0x00, 0xa4, 0x14, 0x00, 0x00, 
    0x9c, 0x14, 0x00, 0x00, 0x84, 0x14, 0x00, 0x00, 0x4c, 0x14, 0x00, 0x00, 
    0xec, 0x13, 0x00, 0x00, 0x3c, 0x04, 0x00, 0x00, 0x0c, 0x01, 0x00, 0x00, 
    0xac, 0x00, 0x00, 0x00, 0xa4, 0x00, 0x00, 0x00, 0x9c, 0x00, 0x00, 0x00, 
    0x94, 0x00, 0x00, 0x00, 0x8c, 0x00, 0x00, 0x00, 0x6c, 0x00, 0x00, 0x00, 
    0x04, 0x00, 0x00, 0x00, 0x02, 0xeb, 0xff, 0xff, 0x04, 0x00, 0x00, 0x00, 
    0x58, 0x00, 0x00, 0x00, 0x0c, 0x00, 0x00, 0x00, 0x08, 0x00, 0x0e, 0x00, 
    0x08, 0x00, 0x04, 0x00, 0x08, 0x00, 0x00, 0x00, 0x10, 0x00, 0x00, 0x00, 
    0x28, 0x00, 0x00, 0x00, 0x00, 0x00, 0x06, 0x00, 0x08, 0x00, 0x04, 0x00, 
    0x06, 0x00, 0x00, 0x00, 0x04, 0x00, 0x00, 0x00, 0x01, 0x00, 0x00, 0x00, 
    0xea, 0x03, 0x00, 0x00, 0x00, 0x00, 0x0a, 0x00, 0x10, 0x00, 0x0c, 0x00, 
    0x08, 0x00, 0x04, 0x00, 0x0a, 0x00, 0x00, 0x00, 0x02, 0x00, 0x00, 0x00, 
    0x02, 0x00, 0x00, 0x00, 0x04, 0x00, 0x00, 0x00, 0x06, 0x00, 0x00, 0x00, 
    0x32, 0x2e, 0x31, 0x35, 0x2e, 0x30, 0x00, 0x00, 0x66, 0xeb, 0xff, 0xff, 
    0x04, 0x00, 0x00, 0x00, 0x10, 0x00, 0x00, 0x00, 0x31, 0x2e, 0x35, 0x2e, 
    0x30, 0x00, 0x00, 0x00, 0x00, 0x00, 0x00, 0x00, 0x00, 0x00, 0x00, 0x00, 
    0x38, 0xe6, 0xff, 0xff, 0x3c, 0xe6, 0xff, 0xff, 0x40, 0xe6, 0xff, 0xff, 
    0x44, 0xe6, 0xff, 0xff, 0x92, 0xeb, 0xff, 0xff, 0x04, 0x00, 0x00, 0x00, 
    0x50, 0x00, 0x00, 0x00, 0x9e, 0xa8, 0x91, 0x3e, 0x60, 0xdd, 0xa0, 0xbd, 
    0x75, 0x79, 0xaa, 0x3e, 0x5e, 0x91, 0x36, 0x3f, 0x66, 0x86, 0x6a, 0x3e, 
    0xf0, 0x37, 0x96, 0xbe, 0x51, 0x80, 0x42, 0x3f, 0x61, 0xed, 0x4f, 0xbf, 
    0x44, 0x36, 0x9e, 0xbe, 0x2a, 0x56, 0xb6, 0x3d, 0x6e, 0xae, 0x5b, 0xbe, 
    0xd5, 0xbd, 0xef, 0x3e, 0x8b, 0x9b, 0xb1, 0x3e, 0xa6, 0xd0, 0xf4, 0xbe, 
    0xd4, 0x75, 0x30, 0x3f, 0xf4, 0x16, 0x79, 0xbd, 0x9f, 0xd3, 0x9a, 0xbc, 
    0xaa, 0xe8, 0xb6, 0x3e, 0xb4, 0xed, 0xc0, 0x3e, 0x4e, 0x5a, 0x22, 0xbf, 
    0xee, 0xeb, 0xff, 0xff, 0x04, 0x00, 0x00, 0x00, 0x20, 0x03, 0x00, 0x00, 
    0x18, 0xc7, 0x82, 0xbe, 0xec, 0x39, 0x84, 0x3e, 0x67, 0xee, 0x8f, 0x3e, 
    0xb7, 0xea, 0x77, 0xbd, 0x66, 0x90, 0xbb, 0xbe, 0x86, 0x2f, 0x79, 0xbe, 
    0xe6, 0xd6, 0x52, 0x3e, 0x5d, 0x72, 0x64, 0xbe, 0xac, 0xc3, 0xca, 0x3e, 
    0x2c, 0xe4, 0x28, 0xbd, 0xc8, 0xed, 0x86, 0xbe, 0x64, 0x74, 0xc9, 0xbe, 
    0x7c, 0x17, 0x62, 0x3e, 0xd3, 0x65, 0xdc, 0x3e, 0x68, 0x88, 0xa0, 0x3c, 
    0xbb, 0x87, 0xa7, 0xbd, 0xf2, 0xd3, 0x1e, 0x3d, 0x66, 0x1f, 0x2c, 0x3d, 
    0x1b, 0x33, 0xf2, 0xbe, 0xe1, 0x54, 0x61, 0xbe, 0xd4, 0xaf, 0x08, 0x3e, 
    0xc5, 0x5b, 0xf9, 0x3e, 0x93, 0x04, 0x62, 0x3e, 0x88, 0x46, 0x4e, 0xbe, 
    0x6b, 0xba, 0x40, 0xbe, 0xa0, 0x97, 0xa3, 0x3e, 0x57, 0x29, 0xa2, 0xbe, 
    0x0f, 0x4c, 0x9c, 0x3e, 0xb4, 0x68, 0x59, 0xbe, 0x9a, 0xe2, 0xad, 0x3e, 
    0x21, 0x6f, 0x98, 0x3e, 0x2f, 0x5f, 0xad, 0x3e, 0x6f, 0x50, 0xd4, 0x3e, 
    0xf9, 0x47, 0x6c, 0xbe, 0x8d, 0xf6, 0xa4, 0x3e, 0x94, 0x36, 0xa3, 0xbe, 
    0xd0, 0xdf, 0x9b, 0xbe, 0x69, 0x53, 0x04, 0x3f, 0x4f, 0x9e, 0xdc, 0xbe, 
    0x98, 0x2a, 0xaf, 0xbe, 0xf6, 0x2e, 0xca, 0x3e, 0x83, 0xcd, 0x3f, 0xbe, 
    0xaa, 0x3b, 0xab, 0x3d, 0x9a, 0x60, 0xa5, 0xbe, 0x54, 0x06, 0xbe, 0x3e, 
    0x48, 0x17, 0x3c, 0x3e, 0x97, 0x56, 0x55, 0x3e, 0x9f, 0x98, 0x48, 0xbe, 
    0xa1, 0xa4, 0x2b, 0xbe, 0x9e, 0x2c, 0xc5, 0x3e, 0x28, 0x48, 0xb2, 0xbe, 
    0x42, 0x50, 0x3d, 0xbe, 0xa5, 0xf8, 0x99, 0xbe, 0xb5, 0x2b, 0xda, 0x3d, 
    0xc9, 0xe5, 0x91, 0x3d, 0x2f, 0x12, 0xeb, 0xbd, 0xd7, 0x49, 0x4c, 0x3d, 
    0xb5, 0xf0, 0xb9, 0xbe, 0xb4, 0x95, 0x56, 0xbe, 0xd4, 0x11, 0xc8, 0x3e, 
    0x38, 0x29, 0x25, 0x3e, 0x67, 0x58, 0x6a, 0x3d, 0xc5, 0x0f, 0x79, 0xbe, 
    0xba, 0x46, 0x9e, 0x3d, 0xb8, 0x1a, 0x3c, 0x3e, 0x5c, 0xe1, 0xb0, 0xbe, 
    0xcf, 0xc5, 0xa0, 0xbe, 0xcd, 0x4a, 0x69, 0x3e, 0x2a, 0x81, 0xb3, 0xbe, 
    0xfc, 0x3b, 0x2d, 0x3d, 0xf2, 0x2a, 0x03, 0x3f, 0x00, 0x07, 0x74, 0xbe, 
    0xbc, 0x2d, 0xce, 0x3e, 0xf5, 0x8b, 0x4c, 0xbd, 0x3c, 0x8c, 0x4b, 0xbe, 
    0x8f, 0x2b, 0x89, 0x3e, 0xe0, 0x96, 0xe3, 0xbe, 0x21, 0x96, 0x2d, 0xbe, 
    0xce, 0xeb, 0xa7, 0x3e, 0x22, 0x1c, 0x07, 0x3e, 0x37, 0x20, 0x7b, 0xbe, 
    0x31, 0x40, 0x36, 0x3d, 0xfa, 0xca, 0x09, 0xbe, 0x20, 0x10, 0x8b, 0x3e, 
    0x21, 0x4e, 0xd2, 0xbc, 0x17, 0x64, 0x7a, 0x3e, 0x33, 0xd2, 0x92, 0xbd, 
    0xa3, 0x77, 0xbc, 0xbd, 0x9c, 0x21, 0x00, 0xbd, 0xfd, 0x01, 0x83, 0xbe, 
    0x24, 0x09, 0x90, 0xbd, 0xba, 0x27, 0xc1, 0x3e, 0x57, 0x3c, 0x5c, 0xbe, 
    0xce, 0xf0, 0x12, 0xbf, 0x72, 0xaf, 0xa3, 0xbe, 0x1b, 0x6f, 0xde, 0x3d, 
    0x1a, 0x57, 0x91, 0x3e, 0x95, 0x2c, 0x1f, 0x3e, 0x0c, 0xe9, 0xb3, 0xbe, 
    0x73, 0xff, 0xee, 0x3c, 0x79, 0xfe, 0x06, 0x3f, 0x56, 0x6c, 0x8d, 0x3d, 
    0x02, 0x51, 0xcd, 0x3e, 0xd7, 0x95, 0x64, 0xbe, 0x5c, 0xb0, 0xe4, 0x3d, 
    0xc2, 0x34, 0x37, 0xbc, 0x74, 0x9a, 0x14, 0xbe, 0x22, 0xba, 0x2f, 0x3e, 
    0xd6, 0xb8, 0xca, 0x3c, 0x6b, 0xf4, 0x1e, 0xba, 0x2a, 0x52, 0x29, 0xbe, 
    0x26, 0x09, 0x78, 0xbd, 0x3e, 0xb8, 0x0f, 0xbc, 0x57, 0xb2, 0x0e, 0x3e, 
    0x6c, 0x9b, 0x75, 0x3e, 0xde, 0xb3, 0xfb, 0xbc, 0xa3, 0x60, 0xc9, 0x3e, 
    0x28, 0xd1, 0xd3, 0x3e, 0xb7, 0x79, 0x89, 0xbd, 0xb9, 0x44, 0xe8, 0xbe, 
    0x0e, 0xd1, 0xed, 0x3d, 0x2e, 0xd2, 0x22, 0xbe, 0x60, 0xde, 0x01, 0x3d, 
    0x9e, 0x14, 0xa5, 0x3b, 0xdd, 0x27, 0x98, 0xbe, 0xdf, 0xdd, 0x1a, 0x3c, 
    0x91, 0xa2, 0x7d, 0xbe, 0xb5, 0x8f, 0x56, 0xbe, 0x46, 0x0f, 0xe1, 0xbd, 
    0x1e, 0x49, 0xd7, 0x3e, 0x0d, 0x3d, 0xd2, 0x3e, 0x4b, 0xe9, 0x35, 0x3e, 
    0xf8, 0x65, 0x0a, 0x3d, 0x72, 0x77, 0xed, 0x3e, 0x59, 0xa9, 0xe4, 0x3d, 
    0x05, 0x9b, 0x83, 0x3e, 0x00, 0x88, 0x96, 0xbd, 0xba, 0xdd, 0xdc, 0xbe, 
    0x27, 0xd8, 0x82, 0xbe, 0x77, 0xd2, 0x8f, 0x3e, 0xb0, 0xbc, 0xa9, 0x3e, 
    0x50, 0x5c, 0x90, 0x3e, 0x5d, 0xfa, 0x0a, 0x3e, 0xdb, 0xee, 0xf9, 0xbe, 
    0xdc, 0x24, 0xdf, 0xbe, 0xd9, 0xd7, 0xc8, 0xbe, 0xb0, 0x4f, 0xeb, 0x3e, 
    0xf4, 0xab, 0x70, 0x3e, 0xbd, 0x15, 0x5b, 0x3e, 0xf3, 0x5f, 0xc3, 0xbe, 
    0x82, 0xbf, 0x9c, 0x3e, 0x36, 0x4c, 0x2a, 0xbe, 0x2e, 0x67, 0x97, 0xbd, 
    0x8e, 0x00, 0x55, 0xbe, 0x74, 0xd7, 0x9a, 0x3e, 0x0c, 0x62, 0xc3, 0xbe, 
    0x00, 0xb4, 0xc0, 0xbc, 0x28, 0xd3, 0x44, 0x3e, 0xa2, 0xe3, 0x8b, 0x3e, 
    0x72, 0x98, 0xca, 0x3e, 0x9d, 0xf8, 0x6b, 0x3e, 0x7a, 0x6b, 0xaf, 0x3e, 
    0x23, 0x96, 0x5b, 0xbd, 0xb1, 0x44, 0x15, 0xbe, 0xf0, 0x26, 0xcd, 0x3d, 
    0x95, 0xd8, 0x84, 0xbe, 0xf6, 0x25, 0xe5, 0x3e, 0x5f, 0x51, 0x93, 0x3e, 
    0x70, 0xad, 0x80, 0xbe, 0x2d, 0x26, 0x11, 0xbe, 0x30, 0xe9, 0x9a, 0x3e, 
    0x50, 0x02, 0xd1, 0xbe, 0x28, 0xa0, 0x94, 0x3d, 0xd5, 0x11, 0xcc, 0xbe, 
    0x29, 0x54, 0xd3, 0x3e, 0x73, 0xa2, 0x8e, 0x3e, 0x7b, 0x5d, 0xcc, 0x3e, 
    0x8b, 0x30, 0x80, 0xbd, 0x3a, 0x50, 0xae, 0x3d, 0xfe, 0x95, 0xa9, 0xbd, 
    0xd2, 0xb4, 0xd7, 0xbe, 0x6b, 0x9d, 0x27, 0xbe, 0x0b, 0xbb, 0xa8, 0xbe, 
    0x04, 0x87, 0xba, 0x3e, 0xcd, 0x6a, 0x8d, 0xbe, 0x2e, 0x9e, 0x44, 0xbe, 
    0xd0, 0xe2, 0xc3, 0x3d, 0xb6, 0x1f, 0x84, 0xbe, 0x57, 0xbf, 0xbd, 0xbe, 
    0xc5, 0x6d, 0xdf, 0x3e, 0xb7, 0xb7, 0xfa, 0x3e, 0x7f, 0xec, 0xeb, 0x3e, 
    0xbb, 0x58, 0x9c, 0x3c, 0xb4, 0xe2, 0x59, 0xbe, 0x43, 0xd5, 0xa3, 0xbd, 
    0x2c, 0x7d, 0xaf, 0xbe, 0xb0, 0xa6, 0xca, 0xbd, 0xdf, 0xe1, 0xce, 0x3e, 
    0x90, 0x2c, 0xbb, 0x3e, 0x32, 0x5c, 0xc7, 0x3d, 0x1a, 0xef, 0xff, 0xff, 
    0x04, 0x00, 0x00, 0x00, 0xa0, 0x0f, 0x00, 0x00, 0x36, 0xd8, 0x5c, 0xbd, 
    0x82, 0x3e, 0x4d, 0xbe, 0x31, 0x11, 0x45, 0x3e, 0xd3, 0xc2, 0x85, 0xbe, 
    0xef, 0x03, 0x44, 0x3b, 0x4b, 0x96, 0x96, 0x3e, 0xa6, 0x5e, 0xb0, 0x3e, 
    0x59, 0xb3, 0x47, 0xbe, 0x52, 0x14, 0x01, 0x3e, 0x55, 0xb2, 0x39, 0x3d, 
    0x95, 0xf2, 0x84, 0xbe, 0xea, 0xeb, 0x3c, 0x3e, 0xdf, 0x64, 0xf0, 0xbd, 
    0x39, 0x3b, 0x6c, 0x3e, 0x5e, 0x6c, 0x05, 0x3e, 0x18, 0x64, 0x30, 0xbd, 
    0xec, 0xcd, 0xa6, 0xbe, 0x01, 0x9d, 0xf6, 0xbd, 0x40, 0xb2, 0xf3, 0xbd, 
    0x20, 0x7b, 0x86, 0x3e, 0x6d, 0xc0, 0xe9, 0x3d, 0x56, 0xf0, 0x39, 0x3e, 
    0xa1, 0x01, 0x54, 0x3e, 0xc3, 0x57, 0x59, 0xbe, 0x2d, 0x71, 0xcc, 0x3d, 
    0x04, 0xdb, 0x6e, 0xbe, 0xab, 0x45, 0x23, 0x3e, 0xbb, 0xfd, 0x2c, 0xbe, 
    0xba, 0xe7, 0x15, 0x3e, 0x18, 0x1e, 0x47, 0xbe, 0x83, 0x2e, 0x7b, 0x3d, 
    0xc1, 0x77, 0x81, 0xbe, 0x8b, 0xac, 0x1d, 0xbe, 0x53, 0x42, 0xb6, 0x3e, 
    0x9d, 0x08, 0x8f, 0x3c, 0xd3, 0x40, 0x84, 0xbe, 0x9c, 0x62, 0x36, 0xbe, 
    0x7d, 0xde, 0x51, 0x3e, 0x4f, 0x01, 0xf0, 0x3d, 0xf4, 0x76, 0x5c, 0xbe, 
    0xfc, 0x6f, 0x6f, 0xbe, 0xc3, 0x92, 0xb9, 0xb9, 0x34, 0x50, 0x05, 0x3e, 
    0x48, 0x55, 0x85, 0x3c, 0x19, 0x7b, 0x5b, 0xbe, 0xd6, 0xdf, 0x57, 0x3b, 
    0xe5, 0x17, 0x25, 0xbe, 0x56, 0x74, 0x67, 0xbe, 0xe5, 0x4d, 0x47, 0xbe, 
    0x33, 0x70, 0xc1, 0x3d, 0xf5, 0x0e, 0xcb, 0xbd, 0x34, 0x03, 0x13, 0x3b, 
    0xf5, 0x3e, 0x80, 0x3c, 0x23, 0x0f, 0x80, 0xbe, 0x5b, 0x67, 0x1d, 0x3e, 
    0x60, 0x64, 0x74, 0x3c, 0x1e, 0x35, 0x91, 0x3e, 0x6a, 0x97, 0x44, 0xbe, 
    0x3d, 0x9b, 0x6a, 0x3e, 0x0b, 0x84, 0xf6, 0x3d, 0x8e, 0x98, 0xb6, 0xbd, 
    0x2c, 0x68, 0x87, 0x3e, 0x87, 0xa1, 0x82, 0x3c, 0xeb, 0xc6, 0xe8, 0xbd, 
    0xbb, 0xa3, 0x74, 0xbe, 0x62, 0x4e, 0xfd, 0x3c, 0xe1, 0x23, 0x92, 0xbe, 
    0x48, 0x79, 0x9f, 0xbe, 0x9e, 0xa5, 0xde, 0xbd, 0x60, 0xad, 0x84, 0xbe, 
    0xe1, 0x27, 0x01, 0xbe, 0x65, 0x36, 0x6a, 0x3d, 0xc0, 0xe6, 0xe1, 0xbc, 
    0x26, 0x93, 0x1c, 0xbd, 0x99, 0x3a, 0x59, 0x3d, 0x62, 0xfb, 0x44, 0x3e, 
    0x33, 0x76, 0x64, 0xbd, 0x1e, 0x4d, 0x31, 0x3e, 0x8f, 0x53, 0x44, 0xbe, 
    0x44, 0x72, 0x32, 0xbe, 0x30, 0xee, 0x89, 0x3e, 0x8c, 0xe3, 0x2e, 0xbe, 
    0xde, 0x7a, 0x2d, 0x3e, 0xd3, 0x9f, 0x55, 0xbe, 0xd0, 0xd2, 0x86, 0x3e, 
    0x0d, 0x84, 0x95, 0xbd, 0x68, 0x58, 0xd7, 0xbd, 0xaf, 0x5d, 0x10, 0xbe, 
    0xb1, 0x2f, 0x3d, 0x3d, 0xb6, 0x3a, 0x5c, 0xbe, 0x05, 0x38, 0x09, 0x3e, 
    0x37, 0xa2, 0x13, 0xbd, 0x48, 0x81, 0x13, 0xbe, 0x69, 0xce, 0x83, 0xbd, 
    0x8e, 0xc0, 0xc1, 0x3d, 0xa0, 0x98, 0x9a, 0x3d, 0x8e, 0x6e, 0x63, 0xbe, 
    0x33, 0xa8, 0x52, 0xbe, 0xbb, 0x97, 0xb4, 0xbc, 0xd2, 0x5b, 0x0d, 0xbe, 
    0xdc, 0x98, 0x82, 0xbd, 0x09, 0xf5, 0x8a, 0x3e, 0xaf, 0x65, 0x17, 0x3b, 
    0x42, 0x11, 0x32, 0x3b, 0xc1, 0x21, 0x8d, 0xbe, 0x57, 0x76, 0x32, 0xbe, 
    0x80, 0x13, 0x18, 0x3e, 0x69, 0x2f, 0x32, 0x3e, 0x4c, 0xc5, 0x3c, 0xbb, 
    0xad, 0xf6, 0x40, 0x3e, 0x6f, 0x8b, 0xfb, 0x3d, 0xe8, 0xbe, 0xe8, 0x3b, 
    0x09, 0xa4, 0xd5, 0x3d, 0xbd, 0x28, 0x53, 0x3e, 0xf6, 0xbb, 0x80, 0xbe, 
    0xcc, 0x95, 0x44, 0x3e, 0xfe, 0xab, 0x83, 0x3d, 0x4f, 0x0f, 0xe8, 0x3c, 
    0xef, 0x9f, 0x52, 0x3e, 0xef, 0xb3, 0x01, 0xbe, 0x6c, 0x7c, 0x8f, 0xbe, 
    0xcf, 0x6d, 0x38, 0x3e, 0x9f, 0xe9, 0x6a, 0xbd, 0xb3, 0xa8, 0xa1, 0xbd, 
    0x56, 0x7f, 0x43, 0x3d, 0x5e, 0x86, 0x78, 0x3c, 0xc5, 0x6d, 0x98, 0x3e, 
    0xf8, 0xfd, 0xe7, 0xbb, 0xa8, 0xdd, 0x5a, 0xbe, 0x4d, 0x42, 0x6a, 0x3e, 
    0xfc, 0x17, 0x8f, 0x38, 0x7a, 0xc0, 0x8d, 0x3e, 0x04, 0xdb, 0x7c, 0xbe, 
    0x47, 0x1a, 0xb4, 0x3d, 0x63, 0xb7, 0xf6, 0x3b, 0xf4, 0xa1, 0xc7, 0xbd, 
    0xdd, 0xe7, 0x55, 0xbe, 0x57, 0x0a, 0x19, 0x3e, 0xc1, 0x13, 0xfe, 0x3d, 
    0xcb, 0x10, 0x32, 0x3d, 0x2a, 0xcb, 0x08, 0x3e, 0x0c, 0x34, 0x3b, 0x3e, 
    0x30, 0x5a, 0x00, 0xbe, 0xf6, 0x14, 0xf9, 0x3d, 0x3a, 0x6f, 0x76, 0x3d, 
    0x53, 0x9b, 0x49, 0x3e, 0xc5, 0x6b, 0x76, 0x3e, 0x29, 0xd2, 0xc6, 0x3d, 
    0x21, 0xa1, 0xed, 0x3c, 0x98, 0xf7, 0x2b, 0xbe, 0xbe, 0x37, 0xef, 0xbd, 
    0xbc, 0xd8, 0x83, 0xbe, 0xb0, 0x45, 0x48, 0x3d, 0x01, 0x64, 0x84, 0xbe, 
    0x4a, 0x48, 0x88, 0x3e, 0xfd, 0x86, 0xb7, 0xbe, 0xb9, 0x2f, 0x9c, 0xbe, 
    0x24, 0x4f, 0x85, 0x3e, 0x3a, 0xb4, 0x3a, 0xbe, 0x19, 0xc2, 0x4a, 0xbe, 
    0x29, 0x5c, 0x07, 0x3d, 0x7b, 0xf5, 0x99, 0x3e, 0x7a, 0xc4, 0xc4, 0x3d, 
    0xef, 0xd1, 0x58, 0xbe, 0x9f, 0xf1, 0x92, 0xbd, 0x9b, 0x69, 0x34, 0xbe, 
    0x5e, 0xcf, 0x61, 0xbe, 0xac, 0xd5, 0x49, 0xbc, 0x60, 0x9d, 0x7b, 0x3e, 
    0xe9, 0xa6, 0xf4, 0xbc, 0x3d, 0xc2, 0x7b, 0x3e, 0x8e, 0x30, 0x1b, 0xbc, 
    0xff, 0x15, 0xd0, 0xbd, 0x35, 0x35, 0x35, 0xbe, 0x0a, 0x82, 0x4f, 0x3a, 
    0x9d, 0x61, 0x83, 0xbd, 0x21, 0x54, 0x3f, 0xbe, 0x02, 0x4f, 0x36, 0x3c, 
    0x77, 0x07, 0x87, 0xbd, 0x0f, 0x76, 0x86, 0x3e, 0xfb, 0xd4, 0x55, 0x3e, 
    0x1e, 0xf4, 0x16, 0x3e, 0x83, 0xb3, 0x1c, 0xbe, 0x68, 0x40, 0xac, 0xbe, 
    0x82, 0xca, 0x3d, 0xbc, 0x18, 0x6a, 0x25, 0xbe, 0xff, 0x0f, 0x67, 0x3d, 
    0xed, 0x72, 0x09, 0x3d, 0x08, 0x9b, 0x99, 0x3e, 0x19, 0x0f, 0xf9, 0x3c, 
    0xaa, 0x1c, 0x02, 0x3e, 0x16, 0x03, 0xdc, 0xbd, 0x1f, 0xb0, 0x44, 0xbe, 
    0x54, 0x27, 0x5e, 0x3d, 0x3c, 0x26, 0x27, 0xba, 0x0c, 0xc0, 0x84, 0xbe, 
    0x48, 0x87, 0x5f, 0xbc, 0x34, 0x75, 0x7b, 0x3e, 0xc3, 0xf1, 0x86, 0x3e, 
    0x56, 0xda, 0x20, 0xbe, 0x3e, 0x99, 0xcd, 0x3d, 0xae, 0x93, 0x79, 0xbe, 
    0x74, 0x73, 0xf8, 0x3d, 0x57, 0x49, 0x91, 0x3d, 0xd1, 0x80, 0xc5, 0xbd, 
    0xbb, 0x5f, 0x79, 0x3d, 0x20, 0xe5, 0xb4, 0x3d, 0x7f, 0xcb, 0x82, 0xbe, 
    0x8f, 0x88, 0x86, 0x3e, 0xd1, 0xa0, 0x8c, 0x3e, 0xa4, 0x46, 0x87, 0x3e, 
    0x72, 0xb9, 0x92, 0xbe, 0xc1, 0x25, 0x2f, 0x3e, 0x61, 0x63, 0xa1, 0x3d, 
    0xcb, 0x29, 0x85, 0x3e, 0xb8, 0xa5, 0xb9, 0x3d, 0xf5, 0x57, 0x5d, 0x3c, 
    0xe7, 0x23, 0x05, 0x3d, 0xff, 0x71, 0xa8, 0x3d, 0x6e, 0x09, 0x01, 0xbe, 
    0x00, 0x0d, 0xc6, 0xbd, 0xe4, 0x2c, 0x74, 0xbd, 0x41, 0x68, 0xe2, 0xbd, 
    0x8f, 0x91, 0x8f, 0x3c, 0x7a, 0xc9, 0x81, 0x3d, 0xdd, 0xe8, 0xe4, 0x3d, 
    0x78, 0xef, 0x8f, 0x3e, 0x45, 0x3d, 0x4d, 0xbe, 0x1a, 0x1f, 0x85, 0xba, 
    0xc2, 0x0d, 0x48, 0x3e, 0x1b, 0x68, 0x4c, 0x3e, 0xf8, 0xd4, 0x00, 0xbd, 
    0xab, 0x9e, 0x55, 0xbd, 0x3a, 0xdb, 0x2d, 0xbe, 0x18, 0x19, 0xc9, 0xbd, 
    0x13, 0xc5, 0xfe, 0xbc, 0x77, 0xcb, 0x18, 0xbe, 0x05, 0xd2, 0x82, 0xbe, 
    0x1d, 0xcb, 0x7d, 0x3e, 0x47, 0xcf, 0x1d, 0xbe, 0xaa, 0x7b, 0x23, 0x3d, 
    0x47, 0x34, 0xf4, 0x3d, 0xca, 0x0f, 0x31, 0xbe, 0x1a, 0xcd, 0xf1, 0x3d, 
    0xc6, 0xfe, 0x89, 0x3e, 0x96, 0x92, 0x38, 0xbe, 0x3e, 0xcd, 0x80, 0xbe, 
    0x69, 0xb8, 0x88, 0x3e, 0x93, 0x1b, 0xd4, 0x3d, 0x15, 0xcd, 0x93, 0x3d, 
    0xb4, 0xb4, 0xe1, 0xbd, 0x2f, 0x1f, 0x3e, 0x3d, 0xb9, 0xfe, 0xa1, 0xbe, 
    0xfc, 0x62, 0x83, 0x3e, 0x47, 0x3e, 0xba, 0x3d, 0x80, 0x56, 0x9f, 0xbc, 
    0xb4, 0x13, 0x25, 0x3e, 0x2c, 0x91, 0xcc, 0xbd, 0xf9, 0x82, 0x17, 0x3e, 
    0x2c, 0xad, 0xb8, 0x3c, 0x8c, 0xf2, 0x83, 0xbe, 0xb5, 0xe7, 0xee, 0xbd, 
    0xfe, 0x62, 0x8a, 0xbe, 0x68, 0x31, 0x12, 0xbd, 0x6d, 0x9e, 0xde, 0x3c, 
    0xd3, 0x98, 0x0b, 0xbe, 0x7d, 0x74, 0x40, 0x3d, 0x02, 0x75, 0xfe, 0x3d, 
    0x91, 0x4b, 0x23, 0xbe, 0xc8, 0xaf, 0x58, 0x3d, 0xf2, 0x88, 0x81, 0x3e, 
    0xc5, 0xa7, 0x3d, 0xbe, 0x94, 0x8f, 0xe0, 0x3d, 0x3a, 0x67, 0x7f, 0xbe, 
    0x4a, 0x10, 0x16, 0x3e, 0x64, 0x02, 0x1e, 0xbe, 0x30, 0x62, 0x10, 0x3e, 
    0xb1, 0x5d, 0x91, 0xbe, 0xa7, 0x04, 0x69, 0x3e, 0x82, 0x69, 0x86, 0x3d, 
    0xbd, 0x2c, 0x08, 0xbe, 0xaf, 0x26, 0x54, 0x3e, 0xb2, 0x8e, 0x84, 0x3e, 
    0x24, 0xbc, 0x21, 0x3d, 0x7d, 0x4a, 0xa8, 0xbc, 0x3f, 0x8b, 0x21, 0xbe, 
    0x93, 0xdd, 0xa5, 0x3d, 0x4b, 0xa7, 0xcf, 0x3d, 0xdd, 0x6b, 0x0f, 0x3e, 
    0xdc, 0xdd, 0x86, 0xbe, 0x05, 0xea, 0x27, 0xbe, 0x4b, 0xce, 0x1a, 0x3e, 
    0x1d, 0x90, 0xde, 0x3d, 0x9b, 0x71, 0x77, 0x3d, 0xf1, 0x1d, 0x1e, 0x3e, 
    0x44, 0xb5, 0xd9, 0xbc, 0x41, 0xca, 0x7b, 0xbe, 0x54, 0x7e, 0xb4, 0x3c, 
    0xa5, 0x05, 0x18, 0x3d, 0xcc, 0x86, 0x24, 0xbe, 0xa1, 0xff, 0x7d, 0x3e, 
    0xac, 0x62, 0x36, 0xbe, 0xfb, 0x9e, 0x37, 0x3c, 0x1a, 0x41, 0xad, 0x3d, 
    0xa5, 0x88, 0x1d, 0xbe, 0x5d, 0x02, 0x9d, 0x3e, 0x86, 0x13, 0xa3, 0x3e, 
    0x14, 0x2b, 0xa3, 0xbe, 0x11, 0x13, 0x20, 0xbe, 0x60, 0x1c, 0x20, 0x3e, 
    0x3e, 0x03, 0x24, 0xbd, 0x78, 0x51, 0x0e, 0xbe, 0xb4, 0x96, 0x1a, 0x3d, 
    0xb8, 0x8b, 0xdf, 0x3d, 0x73, 0x93, 0x2d, 0xbe, 0x82, 0x5f, 0x60, 0x3e, 
    0x35, 0x7a, 0x4e, 0xbe, 0x36, 0x93, 0x9d, 0xbe, 0xcc, 0x97, 0xdc, 0xbd, 
    0xa2, 0xdd, 0xaa, 0xbc, 0x75, 0x16, 0xfd, 0x3d, 0x05, 0x29, 0x4c, 0x3e, 
    0x5e, 0x64, 0x80, 0xbe, 0x19, 0xa1, 0x30, 0xbe, 0xc8, 0xd0, 0x88, 0x3e, 
    0xe0, 0x89, 0x14, 0xbe, 0x47, 0x11, 0x70, 0xbd, 0xf0, 0x5c, 0x0b, 0x3e, 
    0x79, 0x27, 0x8a, 0xbe, 0x38, 0xa4, 0x32, 0xbe, 0x2f, 0xb4, 0xe4, 0x3b, 
    0x36, 0xde, 0x8c, 0xbe, 0xe5, 0x3b, 0xb9, 0x3c, 0xce, 0xca, 0x55, 0x3e, 
    0x96, 0xc6, 0xd6, 0x3c, 0x4d, 0xb2, 0x63, 0x3e, 0xb7, 0xf8, 0x24, 0xbe, 
    0x94, 0x98, 0xfa, 0x3d, 0x4c, 0x01, 0x30, 0x3e, 0xf9, 0xb8, 0x72, 0x3c, 
    0x5a, 0x00, 0x6d, 0xbe, 0x82, 0x29, 0xce, 0x3b, 0x8b, 0xf1, 0x4f, 0xbd, 
    0xd5, 0x11, 0x46, 0xbe, 0xec, 0x7c, 0x16, 0x3e, 0x18, 0x4f, 0x5c, 0x3e, 
    0x70, 0xfd, 0x95, 0xbd, 0xba, 0xe1, 0x00, 0xbe, 0x2d, 0x70, 0x28, 0x3e, 
    0xea, 0x35, 0x9b, 0xbc, 0xb1, 0xd9, 0x9e, 0x3d, 0x0b, 0x1c, 0x31, 0xbe, 
    0x51, 0xc9, 0x9c, 0xbd, 0xac, 0xfb, 0x14, 0x3d, 0x34, 0xeb, 0x1a, 0x3d, 
    0x3c, 0x5b, 0x43, 0xbe, 0x0c, 0x99, 0x80, 0x3e, 0x8f, 0xdb, 0x9d, 0xbe, 
    0x60, 0x4b, 0xad, 0x3d, 0x1f, 0xe5, 0x1a, 0xbe, 0xbf, 0x05, 0xdd, 0xbd, 
    0x81, 0xee, 0x7c, 0xbd, 0x32, 0xdc, 0x56, 0x3e, 0x0b, 0x42, 0x57, 0x3e, 
    0x6a, 0x34, 0xb3, 0xbd, 0x5a, 0x8e, 0x03, 0xbe, 0x00, 0xa2, 0xbc, 0x3d, 
    0x93, 0x5f, 0xb3, 0xbd, 0x2c, 0x3f, 0x59, 0xbe, 0xff, 0x6e, 0x4c, 0xbe, 
    0xd6, 0x36, 0xd6, 0xbc, 0x19, 0x83, 0xbf, 0x3d, 0xa1, 0x91, 0x5d, 0xbe, 
    0xe5, 0x72, 0x5a, 0x3d, 0x7a, 0x4a, 0x83, 0x3e, 0xf3, 0x98, 0x18, 0xbe, 
    0xa1, 0xa8, 0x67, 0x3e, 0xd3, 0x95, 0x58, 0x3e, 0x98, 0x50, 0x17, 0xbe, 
    0x92, 0xd3, 0x5d, 0xbe, 0x6f, 0x9a, 0xe6, 0x3d, 0x10, 0xac, 0x5e, 0x3e, 
    0x68, 0xe7, 0x2e, 0x3e, 0x14, 0x6c, 0x88, 0xba, 0xb9, 0x8b, 0xda, 0x3b, 
    0x45, 0x9e, 0xc3, 0xbd, 0x0c, 0x98, 0xac, 0xbd, 0xae, 0xcc, 0xf7, 0x3d, 
    0x18, 0x03, 0xed, 0xbc, 0x8b, 0x09, 0x73, 0xbe, 0x4f, 0x9b, 0x6f, 0xbe, 
    0xa0, 0xb4, 0x22, 0xbe, 0x1d, 0xce, 0x61, 0x3e, 0xa3, 0xca, 0x18, 0x3e, 
    0x81, 0xcb, 0x46, 0xbe, 0x1b, 0x4e, 0xd3, 0xbd, 0xb7, 0xb3, 0x79, 0xbe, 
    0x84, 0x16, 0x94, 0x3d, 0x46, 0x9e, 0x30, 0x3e, 0x23, 0x2d, 0x79, 0xbe, 
    0x39, 0x70, 0xb2, 0x3e, 0x86, 0xdb, 0x50, 0x3e, 0x9a, 0x33, 0x0a, 0x3d, 
    0x81, 0x98, 0x38, 0xbd, 0x48, 0x09, 0xba, 0x3d, 0x9b, 0x15, 0x2c, 0xbe, 
    0xc6, 0x5a, 0x32, 0x3e, 0x85, 0x67, 0x76, 0xbe, 0xbf, 0x46, 0x27, 0xbe, 
    0x30, 0x94, 0x88, 0x3d, 0xe8, 0x33, 0x79, 0xbe, 0x29, 0x0f, 0xa4, 0xbd, 
    0xdd, 0x96, 0x56, 0xbe, 0xa6, 0xe2, 0x4e, 0x3d, 0xfb, 0x4f, 0x0d, 0x3e, 
    0x58, 0x48, 0xa4, 0x3d, 0x2d, 0xed, 0x42, 0xbe, 0x7e, 0x51, 0xa9, 0xbc, 
    0x01, 0xd5, 0x0e, 0x3e, 0x59, 0xdf, 0x3d, 0x3e, 0xfc, 0xd4, 0x84, 0xbe, 
    0x5e, 0xb7, 0x21, 0xbb, 0x01, 0x2d, 0xb0, 0x3d, 0x7a, 0x6b, 0x91, 0x3e, 
    0xcf, 0xbe, 0x0b, 0x3e, 0x84, 0xe1, 0xcc, 0xbd, 0xf0, 0x72, 0x48, 0xbe, 
    0xb7, 0x4f, 0x98, 0x3e, 0x71, 0x5a, 0xcf, 0xbd, 0x5c, 0x94, 0xcf, 0xbc, 
    0x01, 0x12, 0x27, 0x3e, 0xfc, 0xbd, 0x40, 0x3e, 0x44, 0xef, 0x94, 0x3e, 
    0xa9, 0x19, 0xea, 0x3d, 0xb8, 0xb3, 0x99, 0x3d, 0xca, 0x98, 0x2a, 0xbe, 
    0xd6, 0xd4, 0x2f, 0x3e, 0x35, 0xb1, 0x13, 0x3e, 0x3b, 0x8f, 0x5a, 0xbd, 
    0xeb, 0x79, 0x41, 0x3e, 0xe3, 0x07, 0x38, 0xbe, 0x9e, 0xf5, 0x75, 0x3e, 
    0xc3, 0x1b, 0x3d, 0x3d, 0xd1, 0x1c, 0x97, 0xbe, 0x06, 0xdb, 0x35, 0xbc, 
    0xe0, 0xd9, 0x62, 0x3e, 0xd1, 0x72, 0x8f, 0xbd, 0x72, 0x42, 0xb0, 0x3d, 
    0x77, 0xb3, 0x1c, 0xbe, 0xad, 0xcc, 0x95, 0xbd, 0x27, 0xbe, 0x54, 0x3e, 
    0xaa, 0xb4, 0xe0, 0x3d, 0x80, 0x4e, 0x34, 0xbe, 0xa6, 0x7f, 0x22, 0xbe, 
    0x38, 0x48, 0xd6, 0x3d, 0x15, 0x2a, 0x92, 0xbe, 0x6c, 0x3d, 0x7f, 0xbe, 
    0x5f, 0x06, 0xf2, 0x3d, 0x97, 0x66, 0x97, 0x3e, 0x99, 0x2e, 0x43, 0xbe, 
    0x6a, 0xb2, 0xdf, 0xbc, 0x23, 0x0b, 0x4e, 0xbe, 0xc6, 0x49, 0x5d, 0x3e, 
    0xcf, 0x49, 0x27, 0xbd, 0x45, 0x35, 0x58, 0x3e, 0xc1, 0x4f, 0xd8, 0x3d, 
    0x80, 0x53, 0xdd, 0xbd, 0x1b, 0xf6, 0xbe, 0xbd, 0xc2, 0x4b, 0xc2, 0x3c, 
    0xca, 0xa7, 0xb8, 0xbc, 0x07, 0x43, 0x3c, 0xbd, 0x43, 0xdd, 0x1e, 0x3c, 
    0x77, 0xc1, 0x50, 0xbd, 0x84, 0x15, 0x18, 0x3c, 0x79, 0xe7, 0xda, 0xbd, 
    0x3a, 0x9e, 0x23, 0x3d, 0xdf, 0x1d, 0x67, 0xbe, 0x74, 0xbf, 0x7e, 0xbe, 
    0x1b, 0x09, 0x2a, 0xbe, 0xe1, 0xa3, 0x84, 0xbe, 0x59, 0x1a, 0x43, 0x3e, 
    0x83, 0x38, 0xde, 0xbd, 0xcf, 0xef, 0xca, 0x3d, 0xf0, 0x30, 0x5b, 0xbe, 
    0x09, 0x7d, 0x86, 0xbe, 0xe9, 0x4c, 0x82, 0x3d, 0xd6, 0x89, 0x92, 0x3d, 
    0x6a, 0xdb, 0x61, 0xbe, 0xfd, 0xe3, 0x64, 0xbe, 0xd1, 0xf4, 0x4f, 0xbe, 
    0x3a, 0x05, 0x29, 0x3e, 0x0e, 0x29, 0x40, 0x3e, 0x42, 0x8a, 0x56, 0x3e, 
    0x9e, 0xc7, 0x20, 0x3e, 0x33, 0x61, 0x82, 0x3c, 0x29, 0x29, 0xde, 0xbd, 
    0xb3, 0x3e, 0x5d, 0xbd, 0xa9, 0x81, 0x78, 0x3d, 0x2c, 0xe4, 0x85, 0x3d, 
    0x1c, 0x93, 0xf9, 0x3d, 0x66, 0xc6, 0x65, 0x3e, 0x67, 0x02, 0xe6, 0x3b, 
    0x5c, 0x31, 0xea, 0x3d, 0x28, 0x65, 0x88, 0xbe, 0x34, 0xf2, 0xac, 0x3c, 
    0x32, 0xdd, 0xe9, 0xbc, 0x74, 0x25, 0x22, 0xbe, 0x96, 0xb0, 0x3c, 0xbd, 
    0x15, 0x36, 0x7a, 0xbe, 0x44, 0x78, 0x98, 0xbe, 0xc0, 0x82, 0x82, 0x3e, 
    0xf3, 0x75, 0x15, 0xbe, 0xe8, 0x7e, 0x6e, 0x3e, 0x4d, 0x9e, 0x93, 0x3e, 
    0xca, 0xe3, 0xc6, 0xbd, 0xe4, 0xbb, 0xe0, 0x3d, 0xea, 0x1c, 0x87, 0x3e, 
    0x5a, 0x86, 0x83, 0xbe, 0xa3, 0xbb, 0xa8, 0x3d, 0xf8, 0x48, 0x2c, 0x3c, 
    0xbc, 0xa7, 0x25, 0x3d, 0x36, 0x7a, 0x91, 0x3e, 0xc0, 0x08, 0xf1, 0x3c, 
    0x1c, 0x62, 0x88, 0x3e, 0x9f, 0x67, 0xd4, 0xbd, 0x6a, 0xed, 0x6b, 0xbe, 
    0xbf, 0x3c, 0x89, 0xbe, 0x28, 0x8d, 0x47, 0x3e, 0x98, 0xc6, 0xcd, 0x3d, 
    0xbd, 0xe2, 0x1a, 0xbd, 0x9d, 0xe7, 0x4b, 0x3e, 0xd7, 0x2d, 0x5e, 0xbd, 
    0x6b, 0xee, 0x5a, 0xbd, 0xd0, 0xb1, 0x1f, 0xbe, 0x1c, 0xa8, 0xb4, 0xbe, 
    0xdd, 0xfa, 0x26, 0x3e, 0x47, 0xd5, 0xcf, 0xbd, 0x0c, 0x30, 0x80, 0x3e, 
    0xc8, 0x8f, 0x95, 0x3e, 0x74, 0xa0, 0x85, 0xbe, 0x27, 0x0c, 0x34, 0xba, 
    0x09, 0x5e, 0x6a, 0xbd, 0x4b, 0x8a, 0x53, 0xbe, 0x68, 0xd7, 0xc0, 0x3d, 
    0x3e, 0x27, 0x43, 0x3d, 0x18, 0x9d, 0x8b, 0x3e, 0xe4, 0x56, 0xc8, 0xbd, 
    0x25, 0x68, 0x65, 0xbc, 0x00, 0x97, 0x2a, 0xbe, 0x3d, 0x5b, 0x56, 0xbe, 
    0xf5, 0x02, 0xc8, 0x3d, 0x6e, 0xe5, 0x28, 0x3e, 0x29, 0xa5, 0x21, 0xbe, 
    0xc4, 0xc9, 0x75, 0x3e, 0xca, 0xd9, 0x88, 0x3e, 0x1f, 0x8e, 0xe0, 0xbd, 
    0xad, 0x74, 0x3d, 0xbe, 0xc2, 0x2d, 0x01, 0xbe, 0xd0, 0x91, 0x3b, 0xbe, 
    0xe1, 0x0f, 0x00, 0xbe, 0x10, 0x9c, 0x84, 0x3e, 0xbd, 0xfa, 0x88, 0xbd, 
    0xb7, 0x2b, 0x0e, 0x3e, 0x1f, 0x2c, 0xab, 0xbd, 0xdc, 0x3a, 0x45, 0x3e, 
    0x55, 0x76, 0x20, 0x3e, 0xcb, 0xef, 0x69, 0x3e, 0xf2, 0x4d, 0xa1, 0x3e, 
    0x50, 0x62, 0x56, 0xbc, 0xf8, 0xd0, 0xc6, 0xbd, 0x6e, 0xa2, 0x58, 0x3c, 
    0xc6, 0x72, 0x72, 0xbe, 0x87, 0xf2, 0xda, 0x3d, 0xef, 0x91, 0x73, 0x3e, 
    0xb2, 0xb6, 0x63, 0x3e, 0x45, 0x1f, 0x14, 0x3e, 0xe6, 0x15, 0x88, 0xbe, 
    0xbb, 0x6e, 0x0e, 0xbe, 0x99, 0xec, 0x2d, 0x3d, 0xa5, 0x28, 0x81, 0x3e, 
    0x5e, 0x83, 0x26, 0x3d, 0xce, 0x0d, 0xf6, 0x3b, 0xb8, 0x61, 0xf8, 0xbd, 
    0xcd, 0xbb, 0x6f, 0xbe, 0xae, 0x6a, 0x0a, 0xbe, 0x52, 0x6d, 0xfb, 0x3d, 
    0xcf, 0x33, 0x59, 0xbb, 0x58, 0x28, 0x19, 0x3c, 0x65, 0x82, 0x8d, 0x3e, 
    0x7d, 0xde, 0x9a, 0xbd, 0x0b, 0x93, 0xb7, 0x3d, 0xb8, 0x40, 0x2e, 0x3d, 
    0x94, 0x63, 0x45, 0xbd, 0x47, 0xd5, 0x3f, 0x3d, 0x73, 0x4e, 0x4b, 0xbc, 
    0x4e, 0x4c, 0x5e, 0x3e, 0x0f, 0xa6, 0x44, 0xbd, 0xc7, 0x4a, 0x19, 0xbc, 
    0xed, 0xbd, 0x18, 0xbe, 0x60, 0x8c, 0x0f, 0x3e, 0x36, 0xe8, 0x8b, 0xbe, 
    0x72, 0xf5, 0x1c, 0xbe, 0x5d, 0xf6, 0x1f, 0xbe, 0x0a, 0xd9, 0x30, 0xbe, 
    0xcb, 0xb5, 0x8b, 0x3c, 0xcc, 0x6e, 0xbf, 0x3d, 0x78, 0x29, 0x4e, 0x3d, 
    0xdd, 0x5b, 0x89, 0xbe, 0x1f, 0xc1, 0x8f, 0xbd, 0x1a, 0x58, 0x75, 0x3d, 
    0xe2, 0xc3, 0xdb, 0x3d, 0xd2, 0x21, 0x62, 0xbe, 0x20, 0x40, 0x10, 0x3e, 
    0x3b, 0x60, 0xb0, 0x3d, 0x4a, 0xd1, 0x2f, 0xbe, 0x0c, 0x2d, 0x92, 0x3e, 
    0xf9, 0xb8, 0xf5, 0x3d, 0x94, 0x74, 0x4c, 0x3e, 0x9e, 0x7f, 0xe6, 0xbc, 
    0xbe, 0xbc, 0x52, 0xbe, 0x0f, 0x1c, 0xcf, 0xbd, 0xd9, 0x2c, 0x5b, 0xbe, 
    0xca, 0xb0, 0x8d, 0xbe, 0x62, 0x8e, 0x8a, 0x3e, 0xec, 0x73, 0xe5, 0xbd, 
    0x91, 0x31, 0xdb, 0xbd, 0x1d, 0x2e, 0xe5, 0xbd, 0x92, 0x2c, 0x40, 0xbe, 
    0x11, 0x2e, 0x5c, 0x3e, 0x78, 0x8c, 0x90, 0x3e, 0xd5, 0x57, 0xf8, 0x3d, 
    0xfa, 0xc6, 0x4a, 0xbe, 0x11, 0x47, 0x8b, 0xbe, 0x8b, 0xac, 0x9a, 0xbe, 
    0x3e, 0xfa, 0x81, 0xbe, 0xfc, 0x77, 0xf1, 0xbb, 0x3e, 0x8c, 0x57, 0xbc, 
    0x9b, 0x86, 0x0f, 0xbe, 0x37, 0x9e, 0xd9, 0xbc, 0x56, 0x5d, 0xaa, 0xb9, 
    0x0a, 0x14, 0x4d, 0x3e, 0xc0, 0xb1, 0xa6, 0xbd, 0x53, 0x20, 0xc6, 0xbd, 
    0x23, 0x8b, 0x0d, 0xbe, 0x7d, 0x55, 0x37, 0xbe, 0xbd, 0x39, 0xbe, 0xbc, 
    0x64, 0x40, 0x1b, 0xbe, 0x00, 0x65, 0x87, 0x3e, 0x8f, 0x2a, 0x14, 0xbe, 
    0x89, 0x09, 0x89, 0x3e, 0x26, 0x6e, 0x44, 0x3c, 0xf8, 0x2e, 0x8b, 0xbc, 
    0xd6, 0x52, 0x56, 0xbe, 0x74, 0x47, 0x62, 0xbe, 0xaf, 0x25, 0x6e, 0x3d, 
    0x75, 0xe9, 0xae, 0xbe, 0x09, 0x68, 0x5f, 0x3e, 0x2e, 0x6b, 0x9d, 0xbd, 
    0x03, 0x30, 0xdb, 0xbd, 0x13, 0xf1, 0x95, 0x3e, 0xad, 0x22, 0x90, 0x3e, 
    0x95, 0xd0, 0xcd, 0xba, 0xd0, 0x79, 0x0c, 0xbe, 0x6a, 0xaf, 0x3c, 0x3c, 
    0x1b, 0xc1, 0x7e, 0x3e, 0x78, 0xc9, 0x2f, 0xbd, 0xa6, 0xf9, 0x33, 0xbe, 
    0x04, 0xa6, 0x67, 0x3e, 0x4e, 0x11, 0xca, 0x3d, 0xf7, 0xd0, 0x94, 0x3e, 
    0xbc, 0xc6, 0xd4, 0xbc, 0xfd, 0xbe, 0x74, 0x3e, 0x67, 0x09, 0x13, 0xbd, 
    0xb8, 0x04, 0x11, 0x3d, 0xd5, 0xa1, 0xbf, 0xbb, 0x63, 0x29, 0x82, 0x3e, 
    0xdc, 0x45, 0x75, 0xbe, 0xa4, 0x07, 0x6a, 0xbd, 0xa7, 0xdb, 0x5d, 0x3e, 
    0xf5, 0x3a, 0x83, 0xbe, 0xc5, 0x9c, 0x35, 0xbe, 0x74, 0xfb, 0x03, 0xbc, 
    0xe3, 0x49, 0x6b, 0xbe, 0x86, 0xf7, 0xff, 0xbd, 0x74, 0x05, 0xd8, 0x3d, 
    0xd9, 0xc3, 0x32, 0xbe, 0xb1, 0x63, 0x59, 0x3d, 0xe7, 0x1a, 0x93, 0x3e, 
    0xe5, 0xe1, 0x7a, 0xbe, 0x3d, 0xbc, 0xbf, 0x3c, 0x74, 0x0f, 0xa0, 0xbc, 
    0x1e, 0x08, 0x10, 0x3e, 0xe2, 0x66, 0x56, 0xbe, 0x48, 0x82, 0xff, 0xbc, 
    0x1f, 0xf1, 0x68, 0xbd, 0xc8, 0xbe, 0xb0, 0xbd, 0xf4, 0x67, 0xb7, 0xbb, 
    0x3c, 0xb1, 0x20, 0x3e, 0xee, 0xc9, 0x0d, 0xbe, 0xa9, 0xcd, 0x43, 0x3e, 
    0x52, 0xae, 0xfb, 0x3d, 0xc7, 0x1e, 0xcf, 0xbb, 0x1d, 0xc4, 0x02, 0x3e, 
    0xb2, 0x69, 0x5a, 0xbe, 0xff, 0x51, 0xf6, 0x3c, 0xd9, 0xbb, 0x20, 0xbe, 
    0x55, 0x96, 0xa6, 0x3e, 0xbb, 0x3f, 0xc7, 0xbd, 0x6a, 0xe4, 0x00, 0xbe, 
    0x60, 0xb9, 0x03, 0x3e, 0x49, 0xb8, 0xbb, 0x3d, 0x28, 0x6e, 0xc8, 0xbd, 
    0xd1, 0xd6, 0xb4, 0xbd, 0x3c, 0x24, 0x6a, 0xbe, 0x01, 0xb1, 0xac, 0xbd, 
    0x95, 0x17, 0x47, 0xbe, 0xea, 0x28, 0x1e, 0x3e, 0x34, 0x92, 0x06, 0x3d, 
    0x2e, 0xde, 0xb6, 0xbc, 0xef, 0x56, 0x9b, 0xbd, 0x6b, 0x29, 0x7c, 0xbc, 
    0x08, 0xed, 0x72, 0x3e, 0x41, 0x90, 0xe7, 0x3b, 0x0f, 0x17, 0x92, 0xbd, 
    0xe8, 0x35, 0x61, 0xbe, 0x90, 0xa9, 0x41, 0xbe, 0x37, 0x46, 0x72, 0x3e, 
    0x58, 0xe7, 0x90, 0xbe, 0x4b, 0x08, 0x8b, 0xbc, 0x0e, 0x2d, 0xd5, 0xbd, 
    0xdd, 0xff, 0xe3, 0xbd, 0x15, 0x3a, 0x9e, 0xbd, 0xe7, 0xc8, 0x0d, 0xbe, 
    0x53, 0x14, 0x57, 0xbe, 0x7f, 0x72, 0x2e, 0x3e, 0x67, 0x93, 0x0c, 0xbd, 
    0x9c, 0xe1, 0x9c, 0xbc, 0x5f, 0xb4, 0x05, 0xbe, 0x62, 0xaa, 0xef, 0xbd, 
    0x8e, 0x83, 0xed, 0xbd, 0xcd, 0x29, 0xe1, 0xbd, 0x3f, 0xa5, 0xd9, 0xbd, 
    0x84, 0xd8, 0x9f, 0x3d, 0x47, 0x61, 0xba, 0x3d, 0x11, 0x8f, 0x77, 0xbe, 
    0xe7, 0x82, 0x87, 0xbe, 0x9c, 0xed, 0x44, 0x3e, 0x79, 0x16, 0x45, 0x3d, 
    0xb7, 0xf3, 0xfb, 0x3d, 0xb1, 0x49, 0x40, 0x3e, 0x97, 0x70, 0x9b, 0x3b, 
    0x1d, 0xe3, 0x3c, 0xbe, 0xe7, 0xad, 0x0c, 0xbe, 0x32, 0xd4, 0x7a, 0xbe, 
    0x06, 0x80, 0xa3, 0x3d, 0x21, 0x7c, 0xb5, 0xbd, 0x97, 0x78, 0xd1, 0xbe, 
    0xf2, 0x65, 0x2e, 0x3e, 0x2c, 0x4e, 0xe1, 0x3d, 0xc7, 0xee, 0xd7, 0xbd, 
    0xcb, 0x67, 0x67, 0x3e, 0x14, 0xb7, 0xa1, 0x3e, 0x32, 0x8b, 0x26, 0x3d, 
    0xe8, 0x45, 0x72, 0xbe, 0xf4, 0x55, 0x35, 0xbd, 0x7d, 0x34, 0xdf, 0xba, 
    0xce, 0x68, 0xa3, 0x3e, 0x5c, 0xcb, 0xa4, 0x3d, 0xb0, 0xc6, 0x6c, 0x3e, 
    0x11, 0x88, 0x13, 0xbe, 0xaf, 0x9c, 0xfb, 0xbd, 0x9d, 0x65, 0x5d, 0x3d, 
    0x8b, 0x62, 0xf3, 0x3d, 0x31, 0x34, 0x2d, 0x3e, 0xaf, 0x33, 0xc1, 0xbd, 
    0xec, 0x28, 0x47, 0x3e, 0x4c, 0xc2, 0x29, 0x3e, 0x85, 0x1b, 0x19, 0x3c, 
    0xe8, 0x15, 0x49, 0x3e, 0x96, 0x1b, 0x29, 0x3e, 0xb9, 0xdc, 0x9e, 0xbe, 
    0xce, 0x62, 0x8e, 0x3e, 0xc9, 0x71, 0xdf, 0xbd, 0x9a, 0x96, 0x31, 0xbd, 
    0x25, 0x4c, 0xa4, 0xbe, 0x31, 0x55, 0x82, 0x3e, 0xcb, 0x41, 0xd6, 0x3d, 
    0x53, 0x10, 0x3e, 0xbe, 0xc5, 0x7a, 0x47, 0xbe, 0x1d, 0x24, 0x8b, 0xbd, 
    0x33, 0xc4, 0xbe, 0x3d, 0x46, 0x82, 0x75, 0x3e, 0x5c, 0x19, 0x3f, 0xbd, 
    0x69, 0xb6, 0x2e, 0xbe, 0x86, 0x01, 0x46, 0xbe, 0x43, 0x72, 0xb6, 0x3d, 
    0x3b, 0x56, 0x97, 0x3d, 0xda, 0x53, 0x77, 0x3e, 0x35, 0xbb, 0x82, 0x3e, 
    0x18, 0x27, 0xd0, 0x3d, 0x6b, 0xbd, 0x46, 0x3e, 0x38, 0xc3, 0x3f, 0x3e, 
    0xca, 0xd2, 0xa1, 0x3d, 0x07, 0xb1, 0x46, 0x3d, 0x6f, 0x75, 0xfb, 0xbd, 
    0x8d, 0x68, 0x15, 0xbe, 0x34, 0x67, 0xa3, 0x3d, 0xf6, 0x2d, 0x73, 0x3e, 
    0x82, 0xe3, 0xa0, 0xbe, 0xc4, 0xe0, 0x05, 0x3e, 0xa6, 0x51, 0xd4, 0xbd, 
    0x63, 0x69, 0x87, 0x3e, 0x37, 0x57, 0x20, 0xbe, 0x02, 0xf6, 0x15, 0x3e, 
    0x1f, 0xbf, 0x8f, 0xbe, 0xff, 0x4f, 0xa3, 0xbd, 0xab, 0x50, 0x46, 0x3e, 
    0x52, 0x87, 0x00, 0xbd, 0xb1, 0x3d, 0x20, 0x3e, 0xae, 0x74, 0x25, 0x3e, 
    0x29, 0x86, 0x2b, 0xbe, 0x40, 0x15, 0xd9, 0x3d, 0xa0, 0xf0, 0x9b, 0xbd, 
    0xc0, 0x4b, 0x2f, 0xbe, 0xb3, 0x33, 0x5c, 0xbd, 0x7b, 0xb5, 0x6a, 0x3e, 
    0x5e, 0x82, 0x50, 0xbe, 0x44, 0x84, 0x8d, 0x3e, 0x59, 0x84, 0x80, 0xbd, 
    0x33, 0x68, 0x87, 0x3e, 0xe4, 0xe1, 0x74, 0x3d, 0x5c, 0x7e, 0x0e, 0xbe, 
    0xa6, 0xd6, 0x88, 0x3e, 0x52, 0xed, 0x5c, 0x3e, 0xeb, 0xa7, 0xef, 0xbd, 
    0x07, 0x51, 0x6d, 0xbe, 0x7a, 0xad, 0xf5, 0xbd, 0x5f, 0x78, 0xe0, 0xbd, 
    0x57, 0x32, 0x56, 0xbc, 0x79, 0xa0, 0xc2, 0xbd, 0xf1, 0xb0, 0x7a, 0xbd, 
    0x3d, 0xfe, 0x48, 0x3e, 0x06, 0x7b, 0xfc, 0xba, 0x8d, 0x4a, 0x01, 0x3e, 
    0xaa, 0xac, 0xd0, 0xbd, 0xd6, 0xa8, 0x2e, 0x3d, 0xb9, 0xf5, 0x7e, 0x3e, 
    0x01, 0xf8, 0xbc, 0xbd, 0x90, 0xe5, 0xcb, 0xbc, 0x13, 0x63, 0xfa, 0xbd, 
    0x46, 0xb0, 0x92, 0xbe, 0x87, 0xd4, 0x90, 0xbe, 0x79, 0xb5, 0x1f, 0xbe, 
    0xbd, 0x23, 0x69, 0x3e, 0x72, 0x17, 0x57, 0x3e, 0x43, 0x6b, 0xa4, 0x3e, 
    0xb7, 0xf1, 0xa1, 0x3d, 0x03, 0x23, 0xcc, 0x3c, 0x94, 0x59, 0x94, 0xbd, 
    0x97, 0x2a, 0x99, 0xbe, 0x2e, 0x0d, 0x49, 0xbe, 0x26, 0x25, 0x08, 0xbe, 
    0x26, 0xdb, 0x89, 0xbd, 0xf6, 0x31, 0x0c, 0xbe, 0x16, 0x1d, 0x87, 0x3e, 
    0x71, 0x5b, 0xdf, 0xbd, 0x9d, 0x48, 0x74, 0x3b, 0xf1, 0x68, 0x72, 0x3e, 
    0x2f, 0xdc, 0x91, 0x3c, 0xc5, 0x63, 0x0e, 0xbd, 0x54, 0x2f, 0x14, 0x3d, 
    0x10, 0x87, 0xa1, 0xbe, 0xe1, 0x08, 0x9b, 0xbe, 0xf0, 0x26, 0x80, 0xbe, 
    0x1d, 0xfd, 0xea, 0x3d, 0xaa, 0x85, 0xb7, 0xbd, 0xe1, 0xf2, 0xdd, 0xbd, 
    0x64, 0x23, 0xc6, 0xbd, 0x2b, 0x62, 0xc8, 0x3d, 0x03, 0x14, 0x47, 0x3e, 
    0x83, 0xeb, 0x4d, 0x3e, 0x7f, 0x43, 0x26, 0x3e, 0x89, 0x4b, 0x5f, 0x3e, 
    0xec, 0x34, 0xcd, 0x3d, 0xea, 0xde, 0xbb, 0x3d, 0xa9, 0xd7, 0x37, 0x3c, 
    0x06, 0x85, 0x8a, 0xbe, 0x51, 0x47, 0x01, 0x3d, 0xc5, 0x44, 0xc3, 0xbd, 
    0x0b, 0x3f, 0xac, 0xbd, 0x47, 0x37, 0x43, 0x3e, 0x1d, 0x53, 0x9f, 0xbe, 
    0x6d, 0x5e, 0x0a, 0x3e, 0x10, 0x02, 0xd2, 0xbd, 0x86, 0x3c, 0x8a, 0xba, 
    0x9f, 0xc2, 0x33, 0x3e, 0xc0, 0x4e, 0x80, 0x3e, 0x20, 0x8b, 0x8f, 0xbe, 
    0xed, 0x2b, 0x55, 0x3e, 0xc2, 0x99, 0x1b, 0x3e, 0x6a, 0x29, 0xe7, 0x3d, 
    0x9e, 0xb4, 0xd6, 0x3d, 0x62, 0xc3, 0x95, 0xbe, 0x5d, 0x30, 0xf7, 0x3d, 
    0xed, 0x54, 0x38, 0xbd, 0x13, 0x2d, 0x25, 0xbe, 0xe7, 0xc6, 0xe2, 0x3c, 
    0x6f, 0xf8, 0x26, 0xbc, 0xd9, 0x63, 0x45, 0xbe, 0x25, 0xab, 0x34, 0xbe, 
    0x38, 0x25, 0x6b, 0xbe, 0x07, 0x6d, 0x1c, 0xbe, 0xb4, 0x24, 0x79, 0xbd, 
    0x48, 0x30, 0x94, 0x3e, 0x0f, 0x98, 0x78, 0x3e, 0xd5, 0x64, 0x18, 0xbc, 
    0xb2, 0x8c, 0x4c, 0x3e, 0x32, 0x92, 0x38, 0x3e, 0xf7, 0xc3, 0x57, 0x3d, 
    0x59, 0xc0, 0x16, 0xbe, 0x0c, 0xb3, 0x4e, 0x3e, 0x87, 0x33, 0x41, 0x3e, 
    0x66, 0x2b, 0xc1, 0x3d, 0x66, 0x55, 0x28, 0xbe, 0xfc, 0x0c, 0x7c, 0x3e, 
    0xce, 0x90, 0x62, 0x3e, 0xaf, 0x92, 0x3d, 0xbe, 0xa5, 0x3d, 0x91, 0xbe, 
    0xac, 0x4b, 0x19, 0xbe, 0xd6, 0x99, 0xe5, 0xbc, 0x28, 0xf0, 0x64, 0x3e, 
    0xd9, 0x67, 0x17, 0x3e, 0x48, 0xb0, 0x64, 0xbe, 0x30, 0xd7, 0xc4, 0x3b, 
    0xf6, 0x15, 0x96, 0x3e, 0x73, 0x8c, 0x00, 0x3e, 0x5c, 0x8c, 0x58, 0x3d, 
    0x94, 0xe1, 0x67, 0x3e, 0xdd, 0xb8, 0x7c, 0xbc, 0x64, 0x16, 0x9c, 0x3e, 
    0xca, 0x2b, 0x00, 0x3e, 0xea, 0xcc, 0x48, 0x3e, 0x1a, 0x5f, 0x16, 0x3e, 
    0x1a, 0xd9, 0x54, 0xbd, 0xb3, 0x31, 0x80, 0x3e, 0x3f, 0xc4, 0x48, 0x3d, 
    0xe6, 0xd2, 0x56, 0x3e, 0x78, 0xb2, 0x8d, 0x3e, 0x4c, 0x94, 0x33, 0xbe, 
    0xd1, 0x77, 0x31, 0x3e, 0xfa, 0x95, 0x81, 0x3e, 0xe1, 0xbd, 0xff, 0xbb, 
    0x23, 0x8d, 0x84, 0xbd, 0x2d, 0x4d, 0x0d, 0x3e, 0x65, 0x91, 0x2d, 0xbd, 
    0x9f, 0x42, 0x49, 0xbe, 0x11, 0x4c, 0x05, 0xbd, 0x26, 0xd7, 0x80, 0x3e, 
    0x23, 0xee, 0xc4, 0x3d, 0x20, 0x80, 0xca, 0xbd, 0xee, 0xe7, 0xea, 0xbd, 
    0x57, 0x65, 0x92, 0x3e, 0x78, 0xa1, 0xa3, 0xbd, 0xd2, 0x8d, 0x28, 0xbe, 
    0x27, 0x0a, 0x80, 0x3d, 0x01, 0x25, 0xb3, 0x3d, 0x39, 0x5b, 0xbe, 0xbd, 
    0x31, 0x76, 0x3b, 0x3d, 0x54, 0xdc, 0x81, 0x3e, 0x40, 0xfb, 0x5a, 0xbe, 
    0xe9, 0xb8, 0x5a, 0x3e, 0xd2, 0xb5, 0x8b, 0x3e, 0x8d, 0x50, 0x04, 0x3e, 
    0x68, 0x2f, 0x09, 0x3d, 0x5d, 0x09, 0x5e, 0xbe, 0x7c, 0x20, 0x88, 0xbd, 
    0xd1, 0xcc, 0x54, 0x3e, 0x09, 0x2b, 0x88, 0xbc, 0x95, 0x63, 0xc5, 0x3c, 
    0x4d, 0x37, 0x35, 0x3e, 0xde, 0x9a, 0x13, 0x3e, 0xbb, 0x35, 0xc4, 0xbd, 
    0x57, 0x43, 0xf8, 0x3d, 0x31, 0x8f, 0xb4, 0xba, 0x29, 0x7e, 0xf0, 0x3d, 
    0x88, 0x03, 0x76, 0x3e, 0x57, 0xd9, 0x26, 0xbe, 0x16, 0xe6, 0x31, 0x3e, 
    0x9d, 0x41, 0x1b, 0xbd, 0x35, 0xc2, 0x87, 0x3d, 0xd5, 0xba, 0x00, 0xbe, 
    0xfe, 0x2e, 0x44, 0x3c, 0x1c, 0xaf, 0xea, 0xbd, 0xad, 0xf6, 0xa8, 0xbd, 
    0xf8, 0xff, 0x03, 0x3d, 0xc3, 0x08, 0xa7, 0x3e, 0xc9, 0x87, 0x4d, 0x3d, 
    0x29, 0xea, 0xae, 0xbd, 0x64, 0xe6, 0x86, 0xbb, 0x9c, 0x28, 0x0f, 0xbd, 
    0xc6, 0xfe, 0xff, 0xff, 0x04, 0x00, 0x00, 0x00, 0x50, 0x00, 0x00, 0x00, 
    0xe8, 0x2c, 0xd0, 0x3d, 0xc9, 0x93, 0x6f, 0x3d, 0xfc, 0x70, 0x37, 0xbd, 
    0x59, 0x18, 0xd1, 0x3d, 0x16, 0x56, 0x89, 0xbd, 0x92, 0x7c, 0xb1, 0xbd, 
    0xbe, 0x7e, 0x9d, 0x3d, 0xf1, 0xe6, 0x95, 0xbb, 0x4e, 0xc9, 0x04, 0xbd, 
    0x14, 0xc8, 0xda, 0x3d, 0xde, 0x5d, 0xbe, 0x3d, 0xb8, 0x08, 0xc3, 0x3b, 
    0x50, 0xc7, 0xb8, 0x3c, 0x9c, 0x34, 0x2f, 0x3c, 0x84, 0xa3, 0x73, 0x3a, 
    0x6a, 0x9a, 0x54, 0x3d, 0x83, 0xf2, 0x27, 0xbd, 0xb1, 0xc8, 0x79, 0x3d, 
    0xe4, 0x48, 0xdf, 0x3d, 0xc8, 0x83, 0xaf, 0x3d, 0x22, 0xff, 0xff, 0xff, 
    0x04, 0x00, 0x00, 0x00, 0x28, 0x00, 0x00, 0x00, 0x87, 0x0f, 0x4e, 0xbd, 
    0xa8, 0x4a, 0x35, 0xbd, 0x37, 0xa9, 0x4c, 0xbc, 0x3c, 0xd1, 0xbe, 0x3d, 
    0xb8, 0xb5, 0x34, 0xbd, 0x88, 0xcc, 0x6a, 0xbb, 0x8b, 0x67, 0x80, 0x3d, 
    0xf4, 0x47, 0xb6, 0x3d, 0x10, 0xac, 0x09, 0xbd, 0x7f, 0x7a, 0x9e, 0x3d, 
    0x56, 0xff, 0xff, 0xff, 0x04, 0x00, 0x00, 0x00, 0x08, 0x00, 0x00, 0x00, 
    0x1b, 0xe0, 0x21, 0x3d, 0x19, 0xe0, 0x21, 0xbd, 0x20, 0xfa, 0xff, 0xff, 
    0x24, 0xfa, 0xff, 0xff, 0x0f, 0x00, 0x00, 0x00, 0x4d, 0x4c, 0x49, 0x52, 
    0x20, 0x43, 0x6f, 0x6e, 0x76, 0x65, 0x72, 0x74, 0x65, 0x64, 0x2e, 0x00, 
    0x01, 0x00, 0x00, 0x00, 0x14, 0x00, 0x00, 0x00, 0x00, 0x00, 0x0e, 0x00, 
    0x18, 0x00, 0x14, 0x00, 0x10, 0x00, 0x0c, 0x00, 0x08, 0x00, 0x04, 0x00, 
    0x0e, 0x00, 0x00, 0x00, 0x14, 0x00, 0x00, 0x00, 0x1c, 0x00, 0x00, 0x00, 
    0x24, 0x01, 0x00, 0x00, 0x28, 0x01, 0x00, 0x00, 0x2c, 0x01, 0x00, 0x00, 
    0x04, 0x00, 0x00, 0x00, 0x6d, 0x61, 0x69, 0x6e, 0x00, 0x00, 0x00, 0x00, 
    0x04, 0x00, 0x00, 0x00, 0xcc, 0x00, 0x00, 0x00, 0x84, 0x00, 0x00, 0x00, 
    0x50, 0x00, 0x00, 0x00, 0x14, 0x00, 0x00, 0x00, 0x00, 0x00, 0x0e, 0x00, 
    0x1a, 0x00, 0x14, 0x00, 0x10, 0x00, 0x0c, 0x00, 0x0b, 0x00, 0x04, 0x00, 
    0x0e, 0x00, 0x00, 0x00, 0x1c, 0x00, 0x00, 0x00, 0x00, 0x00, 0x00, 0x09, 
    0x1c, 0x00, 0x00, 0x00, 0x20, 0x00, 0x00, 0x00, 0x01, 0x00, 0x00, 0x00, 
    0x00, 0x00, 0x06, 0x00, 0x08, 0x00, 0x04, 0x00, 0x06, 0x00, 0x00, 0x00, 
    0x00, 0x00, 0x80, 0x3f, 0x01, 0x00, 0x00, 0x00, 0x0a, 0x00, 0x00, 0x00, 
    0x01, 0x00, 0x00, 0x00, 0x09, 0x00, 0x00, 0x00, 0x9a, 0xff, 0xff, 0xff, 
    0x10, 0x00, 0x00, 0x00, 0x00, 0x00, 0x00, 0x08, 0x0c, 0x00, 0x00, 0x00, 
    0x10, 0x00, 0x00, 0x00, 0xe8, 0xfa, 0xff, 0xff, 0x01, 0x00, 0x00, 0x00, 
    0x09, 0x00, 0x00, 0x00, 0x03, 0x00, 0x00, 0x00, 0x08, 0x00, 0x00, 0x00, 
    0x06, 0x00, 0x00, 0x00, 0x01, 0x00, 0x00, 0x00, 0xca, 0xff, 0xff, 0xff, 
    0x10, 0x00, 0x00, 0x00, 0x00, 0x00, 0x00, 0x08, 0x10, 0x00, 0x00, 0x00, 
    0x14, 0x00, 0x00, 0x00, 0xba, 0xff, 0xff, 0xff, 0x00, 0x00, 0x00, 0x01, 
    0x01, 0x00, 0x00, 0x00, 0x08, 0x00, 0x00, 0x00, 0x03, 0x00, 0x00, 0x00, 
    0x07, 0x00, 0x00, 0x00, 0x05, 0x00, 0x00, 0x00, 0x02, 0x00, 0x00, 0x00, 
    0x00, 0x00, 0x0e, 0x00, 0x16, 0x00, 0x00, 0x00, 0x10, 0x00, 0x0c, 0x00, 
    0x0b, 0x00, 0x04, 0x00, 0x0e, 0x00, 0x00, 0x00, 0x18, 0x00, 0x00, 0x00, 
    0x00, 0x00, 0x00, 0x08, 0x18, 0x00, 0x00, 0x00, 0x1c, 0x00, 0x00, 0x00, 
    0x00, 0x00, 0x06, 0x00, 0x08, 0x00, 0x07, 0x00, 0x06, 0x00, 0x00, 0x00, 
    0x00, 0x00, 0x00, 0x01, 0x01, 0x00, 0x00, 0x00, 0x07, 0x00, 0x00, 0x00, 
    0x03, 0x00, 0x00, 0x00, 0x00, 0x00, 0x00, 0x00, 0x04, 0x00, 0x00, 0x00, 
    0x03, 0x00, 0x00, 0x00, 0x01, 0x00, 0x00, 0x00, 0x0a, 0x00, 0x00, 0x00, 
    0x01, 0x00, 0x00, 0x00, 0x00, 0x00, 0x00, 0x00, 0x0b, 0x00, 0x00, 0x00, 
    0x40, 0x04, 0x00, 0x00, 0xcc, 0x03, 0x00, 0x00, 0x58, 0x03, 0x00, 0x00, 
    0xfc, 0x02, 0x00, 0x00, 0xac, 0x02, 0x00, 0x00, 0x5c, 0x02, 0x00, 0x00, 
    0x0c, 0x02, 0x00, 0x00, 0x74, 0x01, 0x00, 0x00, 0xdc, 0x00, 0x00, 0x00, 
    0x60, 0x00, 0x00, 0x00, 0x04, 0x00, 0x00, 0x00, 0x02, 0xfc, 0xff, 0xff, 
    0x00, 0x00, 0x00, 0x01, 0x14, 0x00, 0x00, 0x00, 0x1c, 0x00, 0x00, 0x00, 
    0x1c, 0x00, 0x00, 0x00, 0x0b, 0x00, 0x00, 0x00, 0x34, 0x00, 0x00, 0x00, 
    0x02, 0x00, 0x00, 0x00, 0xff, 0xff, 0xff, 0xff, 0x02, 0x00, 0x00, 0x00, 
    0xec, 0xfb, 0xff, 0xff, 0x19, 0x00, 0x00, 0x00, 0x53, 0x74, 0x61, 0x74, 
    0x65, 0x66, 0x75, 0x6c, 0x50, 0x61, 0x72, 0x74, 0x69, 0x74, 0x69, 0x6f, 
    0x6e, 0x65, 0x64, 0x43, 0x61, 0x6c, 0x6c, 0x3a, 0x30, 0x00, 0x00, 0x00, 
    0x02, 0x00, 0x00, 0x00, 0x01, 0x00, 0x00, 0x00, 0x02, 0x00, 0x00, 0x00, 
    0x5a, 0xfc, 0xff, 0xff, 0x00, 0x00, 0x00, 0x01, 0x14, 0x00, 0x00, 0x00, 
    0x1c, 0x00, 0x00, 0x00, 0x1c, 0x00, 0x00, 0x00, 0x0a, 0x00, 0x00, 0x00, 
    0x54, 0x00, 0x00, 0x00, 0x02, 0x00, 0x00, 0x00, 0xff, 0xff, 0xff, 0xff, 
    0x02, 0x00, 0x00, 0x00, 0x44, 0xfc, 0xff, 0xff, 0x3a, 0x00, 0x00, 0x00, 
    0x73, 0x65, 0x71, 0x75, 0x65, 0x6e, 0x74, 0x69, 0x61, 0x6c, 0x5f, 0x34, 
    0x2f, 0x64, 0x65, 0x6e, 0x73, 0x65, 0x5f, 0x31, 0x34, 0x2f, 0x4d, 0x61, 
    0x74, 0x4d, 0x75, 0x6c, 0x3b, 0x73, 0x65, 0x71, 0x75, 0x65, 0x6e, 0x74, 
    0x69, 0x61, 0x6c, 0x5f, 0x34, 0x2f, 0x64, 0x65, 0x6e, 0x73, 0x65, 0x5f, 
    0x31, 0x34, 0x2f, 0x42, 0x69, 0x61, 0x73, 0x41, 0x64, 0x64, 0x00, 0x00, 
    0x02, 0x00, 0x00, 0x00, 0x01, 0x00, 0x00, 0x00, 0x02, 0x00, 0x00, 0x00, 
    0xd2, 0xfc, 0xff, 0xff, 0x00, 0x00, 0x00, 0x01, 0x14, 0x00, 0x00, 0x00, 
    0x1c, 0x00, 0x00, 0x00, 0x1c, 0x00, 0x00, 0x00, 0x09, 0x00, 0x00, 0x00, 
    0x70, 0x00, 0x00, 0x00, 0x02, 0x00, 0x00, 0x00, 0xff, 0xff, 0xff, 0xff, 
    0x0a, 0x00, 0x00, 0x00, 0xbc, 0xfc, 0xff, 0xff, 0x55, 0x00, 0x00, 0x00, 
    0x73, 0x65, 0x71, 0x75, 0x65, 0x6e, 0x74, 0x69, 0x61, 0x6c, 0x5f, 0x34, 
    0x2f, 0x64, 0x65, 0x6e, 0x73, 0x65, 0x5f, 0x31, 0x33, 0x2f, 0x4d, 0x61, 
    0x74, 0x4d, 0x75, 0x6c, 0x3b, 0x73, 0x65, 0x71, 0x75, 0x65, 0x6e, 0x74, 
    0x69, 0x61, 0x6c, 0x5f, 0x34, 0x2f, 0x64, 0x65, 0x6e, 0x73, 0x65, 0x5f, 
    0x31, 0x33, 0x2f, 0x52, 0x65, 0x6c, 0x75, 0x3b, 0x73, 0x65, 0x71, 0x75, 
    0x65, 0x6e, 0x74, 0x69, 0x61, 0x6c, 0x5f, 0x34, 0x2f, 0x64, 0x65, 0x6e, 
    0x73, 0x65, 0x5f, 0x31, 0x33, 0x2f, 0x42, 0x69, 0x61, 0x73, 0x41, 0x64, 
    0x64, 0x00, 0x00, 0x00, 0x02, 0x00, 0x00, 0x00, 0x01, 0x00, 0x00, 0x00, 
    0x0a, 0x00, 0x00, 0x00, 0x66, 0xfd, 0xff, 0xff, 0x00, 0x00, 0x00, 0x01, 
    0x14, 0x00, 0x00, 0x00, 0x1c, 0x00, 0x00, 0x00, 0x1c, 0x00, 0x00, 0x00, 
    0x08, 0x00, 0x00, 0x00, 0x70, 0x00, 0x00, 0x00, 0x02, 0x00, 0x00, 0x00, 
    0xff, 0xff, 0xff, 0xff, 0x14, 0x00, 0x00, 0x00, 0x50, 0xfd, 0xff, 0xff, 
    0x55, 0x00, 0x00, 0x00, 0x73, 0x65, 0x71, 0x75, 0x65, 0x6e, 0x74, 0x69, 
    0x61, 0x6c, 0x5f, 0x34, 0x2f, 0x64, 0x65, 0x6e, 0x73, 0x65, 0x5f, 0x31, 
    0x32, 0x2f, 0x4d, 0x61, 0x74, 0x4d, 0x75, 0x6c, 0x3b, 0x73, 0x65, 0x71, 
    0x75, 0x65, 0x6e, 0x74, 0x69, 0x61, 0x6c, 0x5f, 0x34, 0x2f, 0x64, 0x65, 
    0x6e, 0x73, 0x65, 0x5f, 0x31, 0x32, 0x2f, 0x52, 0x65, 0x6c, 0x75, 0x3b, 
    0x73, 0x65, 0x71, 0x75, 0x65, 0x6e, 0x74, 0x69, 0x61, 0x6c, 0x5f, 0x34, 
    0x2f, 0x64, 0x65, 0x6e, 0x73, 0x65, 0x5f, 0x31, 0x32, 0x2f, 0x42, 0x69, 
    0x61, 0x73, 0x41, 0x64, 0x64, 0x00, 0x00, 0x00, 0x02, 0x00, 0x00, 0x00, 
    0x01, 0x00, 0x00, 0x00, 0x14, 0x00, 0x00, 0x00, 0x6a, 0xfe, 0xff, 0xff, 
    0x00, 0x00, 0x00, 0x01, 0x10, 0x00, 0x00, 0x00, 0x10, 0x00, 0x00, 0x00, 
    0x07, 0x00, 0x00, 0x00, 0x2c, 0x00, 0x00, 0x00, 0xd4, 0xfd, 0xff, 0xff, 
    0x1c, 0x00, 0x00, 0x00, 0x73, 0x65, 0x71, 0x75, 0x65, 0x6e, 0x74, 0x69, 
    0x61, 0x6c, 0x5f, 0x34, 0x2f, 0x64, 0x65, 0x6e, 0x73, 0x65, 0x5f, 0x31, 
    0x34, 0x2f, 0x4d, 0x61, 0x74, 0x4d, 0x75, 0x6c, 0x00, 0x00, 0x00, 0x00, 
    0x02, 0x00, 0x00, 0x00, 0x02, 0x00, 0x00, 0x00, 0x0a, 0x00, 0x00, 0x00, 
    0xb6, 0xfe, 0xff, 0xff, 0x00, 0x00, 0x00, 0x01, 0x10, 0x00, 0x00, 0x00, 
    0x10, 0x00, 0x00, 0x00, 0x06, 0x00, 0x00, 0x00, 0x2c, 0x00, 0x00, 0x00, 
    0x20, 0xfe, 0xff, 0xff, 0x1c, 0x00, 0x00, 0x00, 0x73, 0x65, 0x71, 0x75, 
    0x65, 0x6e, 0x74, 0x69, 0x61, 0x6c, 0x5f, 0x34, 0x2f, 0x64, 0x65, 0x6e, 
    0x73, 0x65, 0x5f, 0x31, 0x33, 0x2f, 0x4d, 0x61, 0x74, 0x4d, 0x75, 0x6c, 
    0x00, 0x00, 0x00, 0x00, 0x02, 0x00, 0x00, 0x00, 0x0a, 0x00, 0x00, 0x00, 
    0x14, 0x00, 0x00, 0x00, 0x02, 0xff, 0xff, 0xff, 0x00, 0x00, 0x00, 0x01, 
    0x10, 0x00, 0x00, 0x00, 0x10, 0x00, 0x00, 0x00, 0x05, 0x00, 0x00, 0x00, 
    0x2c, 0x00, 0x00, 0x00, 0x6c, 0xfe, 0xff, 0xff, 0x1c, 0x00, 0x00, 0x00, 
    0x73, 0x65, 0x71, 0x75, 0x65, 0x6e, 0x74, 0x69, 0x61, 0x6c, 0x5f, 0x34, 
    0x2f, 0x64, 0x65, 0x6e, 0x73, 0x65, 0x5f, 0x31, 0x32, 0x2f, 0x4d, 0x61, 
    0x74, 0x4d, 0x75, 0x6c, 0x00, 0x00, 0x00, 0x00, 0x02, 0x00, 0x00, 0x00, 
    0x14, 0x00, 0x00, 0x00, 0x32, 0x00, 0x00, 0x00, 0x4e, 0xff, 0xff, 0xff, 
    0x00, 0x00, 0x00, 0x01, 0x10, 0x00, 0x00, 0x00, 0x10, 0x00, 0x00, 0x00, 
    0x04, 0x00, 0x00, 0x00, 0x3c, 0x00, 0x00, 0x00, 0xb8, 0xfe, 0xff, 0xff, 
    0x2c, 0x00, 0x00, 0x00, 0x73, 0x65, 0x71, 0x75, 0x65, 0x6e, 0x74, 0x69, 
    0x61, 0x6c, 0x5f, 0x34, 0x2f, 0x64, 0x65, 0x6e, 0x73, 0x65, 0x5f, 0x31, 
    0x32, 0x2f, 0x42, 0x69, 0x61, 0x73, 0x41, 0x64, 0x64, 0x2f, 0x52, 0x65, 
    0x61, 0x64, 0x56, 0x61, 0x72, 0x69, 0x61, 0x62, 0x6c, 0x65, 0x4f, 0x70, 
    0x00, 0x00, 0x00, 0x00, 0x01, 0x00, 0x00, 0x00, 0x14, 0x00, 0x00, 0x00, 
    0xa6, 0xff, 0xff, 0xff, 0x00, 0x00, 0x00, 0x01, 0x10, 0x00, 0x00, 0x00, 
    0x10, 0x00, 0x00, 0x00, 0x03, 0x00, 0x00, 0x00, 0x3c, 0x00, 0x00, 0x00, 
    0x10, 0xff, 0xff, 0xff, 0x2c, 0x00, 0x00, 0x00, 0x73, 0x65, 0x71, 0x75, 
    0x65, 0x6e, 0x74, 0x69, 0x61, 0x6c, 0x5f, 0x34, 0x2f, 0x64, 0x65, 0x6e, 
    0x73, 0x65, 0x5f, 0x31, 0x33, 0x2f, 0x42, 0x69, 0x61, 0x73, 0x41, 0x64, 
    0x64, 0x2f, 0x52, 0x65, 0x61, 0x64, 0x56, 0x61, 0x72, 0x69, 0x61, 0x62, 
    0x6c, 0x65, 0x4f, 0x70, 0x00, 0x00, 0x00, 0x00, 0x01, 0x00, 0x00, 0x00, 
    0x0a, 0x00, 0x00, 0x00, 0x00, 0x00, 0x16, 0x00, 0x18, 0x00, 0x14, 0x00, 
    0x00, 0x00, 0x10, 0x00, 0x0c, 0x00, 0x08, 0x00, 0x00, 0x00, 0x00, 0x00, 
    0x00, 0x00, 0x07, 0x00, 0x16, 0x00, 0x00, 0x00, 0x00, 0x00, 0x00, 0x01, 
    0x10, 0x00, 0x00, 0x00, 0x10, 0x00, 0x00, 0x00, 0x02, 0x00, 0x00, 0x00, 
    0x3c, 0x00, 0x00, 0x00, 0x80, 0xff, 0xff, 0xff, 0x2c, 0x00, 0x00, 0x00, 
    0x73, 0x65, 0x71, 0x75, 0x65, 0x6e, 0x74, 0x69, 0x61, 0x6c, 0x5f, 0x34, 
    0x2f, 0x64, 0x65, 0x6e, 0x73, 0x65, 0x5f, 0x31, 0x34, 0x2f, 0x42, 0x69, 
    0x61, 0x73, 0x41, 0x64, 0x64, 0x2f, 0x52, 0x65, 0x61, 0x64, 0x56, 0x61, 
    0x72, 0x69, 0x61, 0x62, 0x6c, 0x65, 0x4f, 0x70, 0x00, 0x00, 0x00, 0x00, 
    0x01, 0x00, 0x00, 0x00, 0x02, 0x00, 0x00, 0x00, 0x00, 0x00, 0x16, 0x00, 
    0x1c, 0x00, 0x18, 0x00, 0x00, 0x00, 0x14, 0x00, 0x10, 0x00, 0x0c, 0x00, 
    0x00, 0x00, 0x00, 0x00, 0x08, 0x00, 0x07, 0x00, 0x16, 0x00, 0x00, 0x00, 
    0x00, 0x00, 0x00, 0x01, 0x14, 0x00, 0x00, 0x00, 0x20, 0x00, 0x00, 0x00, 
    0x20, 0x00, 0x00, 0x00, 0x01, 0x00, 0x00, 0x00, 0x40, 0x00, 0x00, 0x00, 
    0x02, 0x00, 0x00, 0x00, 0xff, 0xff, 0xff, 0xff, 0x32, 0x00, 0x00, 0x00, 
    0x04, 0x00, 0x04, 0x00, 0x04, 0x00, 0x00, 0x00, 0x20, 0x00, 0x00, 0x00, 
    0x73, 0x65, 0x72, 0x76, 0x69, 0x6e, 0x67, 0x5f, 0x64, 0x65, 0x66, 0x61, 
    0x75, 0x6c, 0x74, 0x5f, 0x64, 0x65, 0x6e, 0x73, 0x65, 0x5f, 0x31, 0x32, 
    0x5f, 0x69, 0x6e, 0x70, 0x75, 0x74, 0x3a, 0x30, 0x00, 0x00, 0x00, 0x00, 
    0x02, 0x00, 0x00, 0x00, 0x01, 0x00, 0x00, 0x00, 0x32, 0x00, 0x00, 0x00, 
    0x02, 0x00, 0x00, 0x00, 0x20, 0x00, 0x00, 0x00, 0x04, 0x00, 0x00, 0x00, 
    0xf4, 0xff, 0xff, 0xff, 0x19, 0x00, 0x00, 0x00, 0x00, 0x00, 0x00, 0x19, 
    0x0c, 0x00, 0x0c, 0x00, 0x0b, 0x00, 0x00, 0x00, 0x00, 0x00, 0x04, 0x00, 
    0x0c, 0x00, 0x00, 0x00, 0x09, 0x00, 0x00, 0x00, 0x00, 0x00, 0x00, 0x09
};

#endif //NETWORK_MODEL_H